memory_initialization_radix=2;
memory_initialization_vector=
0000000000101100,
1111111111011000,
0000000000000010,
1111111110111000,
0000000000110001,
0000000010110100,
0000000001000111,
1111111110010010,
1111111111100101,
1111111111010010,
0000000001010111,
0000000000110100,
1111111111100001,
1111111110100001,
1111111110000011,
1111111111111111;
